// Auto-generated TFLite model for AQI prediction
// Model size: 5792 bytes (5.66 KB)
// Test MAE: 25.46 AQI units
// Generated with TensorFlow Lite

#ifndef AQI_MODEL_H
#define AQI_MODEL_H

const unsigned int aqi_model_len = 5792;
const unsigned char aqi_model[] = {
  0x1c, 0x00, 0x00, 0x00, 0x54, 0x46, 0x4c, 0x33, 0x14, 0x00, 0x20, 0x00,
  0x1c, 0x00, 0x18, 0x00, 0x14, 0x00, 0x10, 0x00, 0x0c, 0x00, 0x00, 0x00,
  0x08, 0x00, 0x04, 0x00, 0x14, 0x00, 0x00, 0x00, 0x1c, 0x00, 0x00, 0x00,
  0x98, 0x00, 0x00, 0x00, 0xf0, 0x00, 0x00, 0x00, 0x3c, 0x0f, 0x00, 0x00,
  0x4c, 0x0f, 0x00, 0x00, 0x4c, 0x16, 0x00, 0x00, 0x03, 0x00, 0x00, 0x00,
  0x01, 0x00, 0x00, 0x00, 0x10, 0x00, 0x00, 0x00, 0x00, 0x00, 0x0a, 0x00,
  0x10, 0x00, 0x0c, 0x00, 0x08, 0x00, 0x04, 0x00, 0x0a, 0x00, 0x00, 0x00,
  0x0c, 0x00, 0x00, 0x00, 0x1c, 0x00, 0x00, 0x00, 0x3c, 0x00, 0x00, 0x00,
  0x0f, 0x00, 0x00, 0x00, 0x73, 0x65, 0x72, 0x76, 0x69, 0x6e, 0x67, 0x5f,
  0x64, 0x65, 0x66, 0x61, 0x75, 0x6c, 0x74, 0x00, 0x01, 0x00, 0x00, 0x00,
  0x04, 0x00, 0x00, 0x00, 0x90, 0xff, 0xff, 0xff, 0x0c, 0x00, 0x00, 0x00,
  0x04, 0x00, 0x00, 0x00, 0x08, 0x00, 0x00, 0x00, 0x6f, 0x75, 0x74, 0x70,
  0x75, 0x74, 0x5f, 0x30, 0x00, 0x00, 0x00, 0x00, 0x01, 0x00, 0x00, 0x00,
  0x04, 0x00, 0x00, 0x00, 0x52, 0xf3, 0xff, 0xff, 0x04, 0x00, 0x00, 0x00,
  0x0f, 0x00, 0x00, 0x00, 0x6b, 0x65, 0x72, 0x61, 0x73, 0x5f, 0x74, 0x65,
  0x6e, 0x73, 0x6f, 0x72, 0x5f, 0x32, 0x32, 0x00, 0x02, 0x00, 0x00, 0x00,
  0x34, 0x00, 0x00, 0x00, 0x04, 0x00, 0x00, 0x00, 0xdc, 0xff, 0xff, 0xff,
  0x0f, 0x00, 0x00, 0x00, 0x04, 0x00, 0x00, 0x00, 0x13, 0x00, 0x00, 0x00,
  0x43, 0x4f, 0x4e, 0x56, 0x45, 0x52, 0x53, 0x49, 0x4f, 0x4e, 0x5f, 0x4d,
  0x45, 0x54, 0x41, 0x44, 0x41, 0x54, 0x41, 0x00, 0x08, 0x00, 0x0c, 0x00,
  0x08, 0x00, 0x04, 0x00, 0x08, 0x00, 0x00, 0x00, 0x0e, 0x00, 0x00, 0x00,
  0x04, 0x00, 0x00, 0x00, 0x13, 0x00, 0x00, 0x00, 0x6d, 0x69, 0x6e, 0x5f,
  0x72, 0x75, 0x6e, 0x74, 0x69, 0x6d, 0x65, 0x5f, 0x76, 0x65, 0x72, 0x73,
  0x69, 0x6f, 0x6e, 0x00, 0x10, 0x00, 0x00, 0x00, 0x48, 0x0e, 0x00, 0x00,
  0x40, 0x0e, 0x00, 0x00, 0x30, 0x0c, 0x00, 0x00, 0xf8, 0x0b, 0x00, 0x00,
  0xe8, 0x03, 0x00, 0x00, 0x98, 0x03, 0x00, 0x00, 0x68, 0x03, 0x00, 0x00,
  0x54, 0x03, 0x00, 0x00, 0xc4, 0x02, 0x00, 0x00, 0xb4, 0x00, 0x00, 0x00,
  0xac, 0x00, 0x00, 0x00, 0xa4, 0x00, 0x00, 0x00, 0x9c, 0x00, 0x00, 0x00,
  0x94, 0x00, 0x00, 0x00, 0x74, 0x00, 0x00, 0x00, 0x04, 0x00, 0x00, 0x00,
  0x0e, 0xf4, 0xff, 0xff, 0x04, 0x00, 0x00, 0x00, 0x60, 0x00, 0x00, 0x00,
  0x10, 0x00, 0x00, 0x00, 0x00, 0x00, 0x00, 0x00, 0x08, 0x00, 0x0e, 0x00,
  0x08, 0x00, 0x04, 0x00, 0x08, 0x00, 0x00, 0x00, 0x10, 0x00, 0x00, 0x00,
  0x24, 0x00, 0x00, 0x00, 0x00, 0x00, 0x06, 0x00, 0x08, 0x00, 0x04, 0x00,
  0x06, 0x00, 0x00, 0x00, 0x04, 0x00, 0x00, 0x00, 0x00, 0x00, 0x00, 0x00,
  0x0c, 0x00, 0x18, 0x00, 0x14, 0x00, 0x10, 0x00, 0x0c, 0x00, 0x04, 0x00,
  0x0c, 0x00, 0x00, 0x00, 0x75, 0x0e, 0xd3, 0x73, 0xa1, 0xdc, 0xf5, 0x32,
  0x02, 0x00, 0x00, 0x00, 0x02, 0x00, 0x00, 0x00, 0x04, 0x00, 0x00, 0x00,
  0x06, 0x00, 0x00, 0x00, 0x32, 0x2e, 0x31, 0x39, 0x2e, 0x30, 0x00, 0x00,
  0x7a, 0xf4, 0xff, 0xff, 0x04, 0x00, 0x00, 0x00, 0x10, 0x00, 0x00, 0x00,
  0x31, 0x2e, 0x35, 0x2e, 0x30, 0x00, 0x00, 0x00, 0x00, 0x00, 0x00, 0x00,
  0x00, 0x00, 0x00, 0x00, 0xa0, 0xeb, 0xff, 0xff, 0xa4, 0xeb, 0xff, 0xff,
  0xa8, 0xeb, 0xff, 0xff, 0xac, 0xeb, 0xff, 0xff, 0xa6, 0xf4, 0xff, 0xff,
  0x04, 0x00, 0x00, 0x00, 0x00, 0x02, 0x00, 0x00, 0x21, 0x73, 0xcb, 0xbe,
  0x10, 0xad, 0x88, 0xbe, 0x3a, 0x0e, 0xac, 0x3e, 0x45, 0xed, 0x22, 0xbe,
  0x9d, 0xba, 0xde, 0x3d, 0x9c, 0xe3, 0x92, 0x3e, 0x46, 0xd7, 0xb8, 0xbe,
  0xfe, 0xcc, 0x9d, 0xbe, 0x6e, 0x43, 0xa0, 0xbe, 0x19, 0x31, 0xd1, 0x3e,
  0x32, 0x61, 0xa5, 0xbe, 0x0c, 0x49, 0x27, 0x3e, 0xd2, 0xb6, 0xa4, 0xbe,
  0xfe, 0xcb, 0x0b, 0x3e, 0xdd, 0x47, 0x83, 0x3d, 0x86, 0x2f, 0xcd, 0xbd,
  0xa6, 0x0b, 0x8e, 0x3e, 0xd6, 0x51, 0xa3, 0xbe, 0x53, 0x76, 0xa8, 0x3e,
  0x86, 0x8c, 0x6a, 0xbc, 0xb8, 0x13, 0xaf, 0xbe, 0xbe, 0x44, 0x97, 0x3e,
  0x3f, 0x44, 0xb3, 0x3c, 0x21, 0x1c, 0xa6, 0xbe, 0x99, 0x52, 0xad, 0x3e,
  0x23, 0x2f, 0xdd, 0x3e, 0xc3, 0xd7, 0x95, 0x3d, 0x47, 0x25, 0xa8, 0xbd,
  0xb7, 0xb7, 0x09, 0x3e, 0xd5, 0xef, 0x03, 0x3d, 0x48, 0xeb, 0x86, 0x3e,
  0xbd, 0x39, 0xde, 0x3d, 0xba, 0xeb, 0x1d, 0xbd, 0x42, 0x97, 0x31, 0xbe,
  0x01, 0xa4, 0xb2, 0x3e, 0xbe, 0x11, 0x7f, 0xbe, 0xff, 0x5e, 0x80, 0x3e,
  0xb1, 0xa9, 0x8f, 0x3c, 0x21, 0xd9, 0xae, 0x3e, 0x1d, 0x4f, 0xd6, 0xbd,
  0xdb, 0x0c, 0x8d, 0xbd, 0xe9, 0x66, 0x8e, 0x3e, 0x44, 0x32, 0x7d, 0x3e,
  0x72, 0x80, 0xb6, 0xbe, 0x14, 0xc1, 0xb5, 0xbd, 0x14, 0x55, 0xc0, 0xbe,
  0xd4, 0xd7, 0xf8, 0xbd, 0x64, 0x7c, 0x5a, 0x3e, 0x49, 0x51, 0xd5, 0x3e,
  0xaf, 0x8f, 0xa6, 0xbe, 0x8a, 0x01, 0xc1, 0xbe, 0xf1, 0x7d, 0x82, 0x3e,
  0x62, 0x8d, 0xa8, 0x3e, 0x04, 0x85, 0xf0, 0xbd, 0x8a, 0x85, 0xcf, 0x3e,
  0x6c, 0xd2, 0x5a, 0x3c, 0x73, 0xea, 0xdf, 0x3d, 0x1b, 0x88, 0x0b, 0xbe,
  0x11, 0xa8, 0xa1, 0xbe, 0xc4, 0xa2, 0x9b, 0xbe, 0x6b, 0x2a, 0x92, 0xbe,
  0x30, 0x06, 0x32, 0xbe, 0x44, 0x6a, 0x0b, 0x3e, 0x1a, 0xc4, 0x03, 0xbe,
  0x20, 0x68, 0xab, 0xbe, 0xa0, 0x73, 0x4d, 0xbe, 0x78, 0xf3, 0xd3, 0xbd,
  0x08, 0xbf, 0xb9, 0xbd, 0x92, 0xb0, 0x4a, 0xbe, 0x91, 0x87, 0xd4, 0x3e,
  0xef, 0x03, 0x3e, 0x3e, 0x2f, 0x50, 0x7c, 0x3e, 0x24, 0x7c, 0x25, 0x3d,
  0xc5, 0xcd, 0x64, 0x3e, 0x19, 0x19, 0x4a, 0x3e, 0x55, 0xe2, 0xc1, 0x3e,
  0x96, 0x44, 0x16, 0xbe, 0xac, 0xb0, 0xd4, 0x3e, 0xfa, 0xc8, 0xaa, 0xbe,
  0xc2, 0xba, 0x2e, 0xbe, 0xd9, 0x1c, 0xba, 0xbe, 0xe7, 0x70, 0xa1, 0xbe,
  0x70, 0x7a, 0x98, 0x3c, 0xef, 0x35, 0x9d, 0xbe, 0xac, 0xc6, 0x98, 0x3e,
  0xe2, 0x8f, 0x8b, 0xbe, 0x54, 0xe3, 0xe8, 0x3d, 0x5e, 0x2b, 0xc4, 0x3d,
  0x0b, 0x4b, 0x98, 0x3e, 0x17, 0x63, 0xa3, 0xbe, 0xb2, 0x4f, 0x6f, 0x3e,
  0x95, 0x3d, 0x7c, 0x3e, 0x07, 0x50, 0xc5, 0x3e, 0xc2, 0xd5, 0xa9, 0x3e,
  0x8b, 0xb9, 0x3a, 0xbe, 0x25, 0x92, 0x56, 0xbe, 0x1b, 0xe3, 0xc0, 0xbe,
  0x38, 0xdf, 0x22, 0x3e, 0x24, 0x7d, 0x09, 0xbd, 0xd7, 0x70, 0x8c, 0xbe,
  0xaf, 0xd7, 0x07, 0xbe, 0x1f, 0x25, 0xac, 0xbe, 0x5d, 0xe5, 0xb6, 0x3d,
  0x3e, 0xf5, 0x9a, 0x3e, 0xbe, 0xdd, 0xb5, 0xbd, 0x28, 0xca, 0xae, 0x3d,
  0x74, 0xea, 0x80, 0xbc, 0x53, 0xa2, 0x17, 0x3e, 0x3e, 0x0e, 0x41, 0x3e,
  0xac, 0x38, 0xc9, 0x3d, 0xe5, 0x46, 0xc6, 0xbe, 0x2e, 0x7b, 0x34, 0x3d,
  0xd5, 0x06, 0x59, 0x3e, 0xf1, 0xbf, 0xff, 0xbc, 0x1a, 0xc7, 0x78, 0x3e,
  0x9e, 0xa7, 0xff, 0xbc, 0x70, 0xb7, 0xc2, 0xbe, 0x01, 0xe0, 0xb1, 0xbe,
  0xa0, 0x27, 0x66, 0x3d, 0x4c, 0xfc, 0xf5, 0xbd, 0x46, 0xf5, 0x35, 0xbd,
  0xfe, 0x67, 0xc0, 0x3e, 0x98, 0x01, 0xa6, 0x3e, 0x92, 0xdf, 0xa4, 0xbe,
  0x2d, 0x8d, 0x7c, 0x3e, 0x14, 0x63, 0x22, 0x3d, 0x80, 0x9b, 0x86, 0xbd,
  0x47, 0x9a, 0x07, 0xbe, 0xb2, 0xf6, 0xff, 0xff, 0x04, 0x00, 0x00, 0x00,
  0x80, 0x00, 0x00, 0x00, 0xca, 0x34, 0x80, 0xb8, 0xa0, 0xb5, 0x05, 0xbb,
  0x01, 0x12, 0x08, 0x3b, 0x62, 0x93, 0x4a, 0xbd, 0x05, 0x02, 0x2b, 0x3d,
  0x6e, 0x68, 0xe8, 0xbc, 0xe5, 0x86, 0x4e, 0x39, 0x97, 0x21, 0xd5, 0x3b,
  0x38, 0xce, 0x9c, 0xbc, 0x25, 0x8b, 0x5d, 0x3a, 0x49, 0x64, 0x06, 0xbc,
  0x00, 0x00, 0x00, 0x00, 0xf8, 0xc1, 0xc0, 0x3c, 0x81, 0xf4, 0x19, 0x3a,
  0x1a, 0xc3, 0xcb, 0x3b, 0x00, 0x00, 0x00, 0x00, 0x00, 0x00, 0x00, 0x00,
  0x6e, 0x6c, 0xf7, 0x3c, 0xb6, 0xd1, 0x98, 0xba, 0x28, 0x0e, 0x5a, 0x3c,
  0x00, 0x00, 0x00, 0x00, 0xa9, 0xe2, 0xf9, 0x3c, 0x67, 0xe9, 0x39, 0xbc,
  0xec, 0x9d, 0xed, 0xbb, 0x16, 0x95, 0xbf, 0x3b, 0x20, 0xb3, 0xaf, 0xbc,
  0x10, 0xb3, 0xe2, 0x3b, 0x0f, 0x83, 0x03, 0xbb, 0x57, 0xd8, 0xb7, 0x3b,
  0x00, 0x00, 0x00, 0x00, 0xc0, 0xb8, 0x69, 0x3b, 0xcf, 0x7f, 0x3d, 0x3d,
  0x3e, 0xf7, 0xff, 0xff, 0x04, 0x00, 0x00, 0x00, 0x04, 0x00, 0x00, 0x00,
  0x29, 0x54, 0x54, 0x3e, 0x4e, 0xf7, 0xff, 0xff, 0x04, 0x00, 0x00, 0x00,
  0x20, 0x00, 0x00, 0x00, 0x44, 0xb5, 0xc8, 0xbe, 0x6d, 0x16, 0x1f, 0x3f,
  0x6b, 0x3e, 0x54, 0xbe, 0x1a, 0xb4, 0xe2, 0x3d, 0xb2, 0xac, 0xfe, 0x3d,
  0xd8, 0xda, 0xd4, 0xbd, 0x5a, 0x63, 0x89, 0xbe, 0xd2, 0x5d, 0x21, 0xbf,
  0x7a, 0xf7, 0xff, 0xff, 0x04, 0x00, 0x00, 0x00, 0x40, 0x00, 0x00, 0x00,
  0xf3, 0xa4, 0x9e, 0xbe, 0x1a, 0x01, 0xf0, 0x3f, 0x4b, 0xe6, 0x95, 0xc0,
  0x9d, 0x6a, 0x21, 0x3f, 0xe6, 0xbd, 0x64, 0x3f, 0xb9, 0xc4, 0x81, 0x3e,
  0x56, 0x0a, 0x0a, 0x40, 0x72, 0x01, 0x0b, 0x3f, 0x92, 0x53, 0x58, 0x3f,
  0x2e, 0x54, 0xb9, 0x3a, 0x6a, 0xf4, 0xc1, 0xbe, 0x11, 0x58, 0x6e, 0xbe,
  0xaa, 0x33, 0xdc, 0x3e, 0x70, 0x08, 0xfa, 0x3e, 0x24, 0xb3, 0x5e, 0xbf,
  0x76, 0x11, 0xfa, 0xbf, 0xc6, 0xf7, 0xff, 0xff, 0x04, 0x00, 0x00, 0x00,
  0x00, 0x08, 0x00, 0x00, 0x8e, 0x17, 0x5f, 0x40, 0x74, 0xe3, 0x21, 0x40,
  0xbf, 0xbd, 0xb4, 0x40, 0x32, 0xb1, 0xd0, 0xc0, 0x7f, 0x8f, 0x20, 0xbe,
  0x25, 0x68, 0xa2, 0xc0, 0xbf, 0x3f, 0xdd, 0x3d, 0x24, 0xba, 0x44, 0x3e,
  0x64, 0x12, 0xd8, 0xc0, 0x02, 0xfe, 0x63, 0xc0, 0x27, 0xe1, 0x15, 0x40,
  0x3a, 0x67, 0x27, 0xc1, 0xb2, 0x14, 0x80, 0x3f, 0x35, 0x55, 0x1a, 0x40,
  0xca, 0xb5, 0xc5, 0x40, 0x17, 0x8e, 0xd6, 0xbf, 0x91, 0x13, 0xfa, 0x40,
  0x24, 0x99, 0x94, 0x3f, 0x5e, 0xc3, 0x4c, 0x3f, 0xa2, 0xf1, 0x8c, 0x40,
  0x97, 0x0d, 0x05, 0x41, 0x84, 0x87, 0x04, 0xc0, 0x7b, 0xc9, 0xaf, 0xbf,
  0x07, 0x07, 0xf9, 0x3f, 0x52, 0x64, 0x0b, 0xc0, 0x58, 0x20, 0x58, 0x40,
  0x95, 0x59, 0x5d, 0x40, 0xac, 0xc4, 0x96, 0xc0, 0xf2, 0xa9, 0xd1, 0xbf,
  0x00, 0x82, 0x9b, 0x40, 0x17, 0x62, 0xbf, 0xbf, 0x56, 0x5a, 0xc2, 0xbd,
  0x92, 0xd7, 0x7c, 0x40, 0x52, 0x79, 0x3a, 0xc0, 0x10, 0x92, 0x1a, 0x40,
  0x11, 0xbc, 0xaa, 0xc0, 0x93, 0xcd, 0xe9, 0xbf, 0x0e, 0x50, 0x57, 0x3f,
  0x91, 0xd6, 0xe1, 0xbf, 0x45, 0x16, 0x23, 0x40, 0x8f, 0x72, 0x01, 0xc1,
  0xf2, 0x9f, 0x4c, 0x40, 0xb3, 0xec, 0x0a, 0xc0, 0xf6, 0x7a, 0xe6, 0x3d,
  0x6c, 0x3b, 0x05, 0xc0, 0x48, 0x68, 0x7d, 0xbf, 0xda, 0x48, 0x82, 0xc0,
  0xe2, 0x0b, 0xcd, 0xc0, 0xa3, 0xbc, 0x8f, 0x3f, 0xf5, 0xf4, 0xac, 0x3f,
  0xe7, 0x4d, 0xa7, 0xbf, 0x4f, 0x07, 0x75, 0x3f, 0x5e, 0x4a, 0x83, 0x40,
  0x28, 0x48, 0x51, 0xc0, 0x66, 0xfb, 0x18, 0xbf, 0x17, 0x69, 0xa2, 0xbf,
  0x10, 0x61, 0x0b, 0x41, 0xa2, 0xb2, 0xeb, 0x40, 0x3e, 0x2c, 0x9a, 0x40,
  0x32, 0x75, 0xe5, 0x3e, 0x67, 0xae, 0x4b, 0xc0, 0xca, 0xaa, 0x28, 0x41,
  0xe1, 0xd2, 0xdc, 0xbf, 0xac, 0xec, 0x3e, 0xc0, 0x14, 0x7d, 0x00, 0xc1,
  0x1b, 0x18, 0x81, 0x40, 0xb7, 0xf2, 0xb4, 0x40, 0xd4, 0x86, 0x0c, 0x41,
  0x00, 0xc0, 0x9d, 0x3f, 0x7c, 0x88, 0x7a, 0xc0, 0xf1, 0x41, 0x2c, 0x3e,
  0xde, 0x71, 0x4e, 0x40, 0xe9, 0x8a, 0x22, 0xc0, 0x43, 0x26, 0x30, 0x40,
  0xa4, 0x0e, 0x41, 0xbf, 0x98, 0x20, 0xd2, 0x40, 0x56, 0x8a, 0x91, 0xbf,
  0x54, 0xb5, 0x1b, 0x40, 0xe2, 0x3c, 0x10, 0x40, 0x4c, 0xb6, 0xec, 0x40,
  0x17, 0xd7, 0x15, 0xc0, 0x52, 0x22, 0x39, 0xbe, 0x7d, 0x77, 0x13, 0x40,
  0xc8, 0x3e, 0x81, 0x40, 0x45, 0xb5, 0x58, 0x40, 0xbe, 0xf3, 0xe3, 0x3f,
  0x15, 0xb5, 0x74, 0x3f, 0x1e, 0xf0, 0xbe, 0x3d, 0x34, 0xef, 0x22, 0xc1,
  0x2a, 0xc6, 0xb7, 0x40, 0x1a, 0xf1, 0x87, 0xc0, 0xf8, 0xdc, 0x06, 0x40,
  0x1c, 0x53, 0x55, 0x3f, 0xbc, 0xa7, 0x24, 0x40, 0x21, 0xb0, 0x26, 0x40,
  0x80, 0xbe, 0x27, 0xc0, 0x89, 0x61, 0x28, 0x41, 0xd7, 0x62, 0xe8, 0xc0,
  0x5c, 0x7f, 0x84, 0x40, 0xd6, 0x27, 0x99, 0x40, 0x36, 0xd0, 0x84, 0x3e,
  0xac, 0x85, 0xc1, 0x40, 0x9b, 0x96, 0x88, 0x3f, 0x07, 0xc4, 0xad, 0xbe,
  0x7e, 0xb5, 0xd9, 0xbf, 0x4b, 0x47, 0xae, 0x3f, 0x5c, 0x19, 0xa3, 0x40,
  0xee, 0xcf, 0x94, 0xbf, 0x81, 0x9f, 0x7a, 0xc0, 0x48, 0x3d, 0x04, 0x40,
  0x95, 0xf0, 0x18, 0xc0, 0xcb, 0xbb, 0x00, 0x41, 0x3b, 0x85, 0x05, 0xc1,
  0xdd, 0x3d, 0xc1, 0xbf, 0xba, 0x5d, 0xd6, 0xbf, 0x98, 0x3b, 0x31, 0x3c,
  0xf7, 0x40, 0x20, 0x40, 0xbb, 0xd3, 0xa9, 0xbe, 0xb9, 0x4e, 0x41, 0xbf,
  0x85, 0xde, 0xb0, 0x3f, 0x38, 0x5e, 0xf8, 0x3f, 0x3e, 0x05, 0x39, 0x40,
  0x2e, 0xdf, 0xce, 0x3c, 0x52, 0x42, 0xc0, 0xc0, 0xa3, 0x03, 0x6c, 0xc0,
  0xdf, 0xce, 0x27, 0x41, 0x3c, 0x63, 0x30, 0x3f, 0x23, 0x2b, 0x60, 0xc0,
  0xa2, 0x44, 0x02, 0xc1, 0xd7, 0x8e, 0xb5, 0x3f, 0x5a, 0xd6, 0xba, 0xc0,
  0x54, 0xe7, 0x1d, 0x40, 0xfe, 0x45, 0xa1, 0x3d, 0x1d, 0xa7, 0x1d, 0xc0,
  0xe7, 0x17, 0xbb, 0x3f, 0x26, 0x10, 0x80, 0xc0, 0x23, 0x25, 0xe3, 0x40,
  0x2b, 0xc4, 0x16, 0xc0, 0x12, 0x9e, 0x27, 0x40, 0x09, 0xbe, 0xb0, 0x3c,
  0x2a, 0x15, 0x2c, 0xc0, 0x2b, 0x73, 0x17, 0x40, 0xf0, 0x5a, 0x0a, 0x41,
  0x24, 0x11, 0xc8, 0x40, 0x64, 0x67, 0x00, 0x41, 0xd3, 0xfe, 0xca, 0xbf,
  0x65, 0xb0, 0xd2, 0xbf, 0x90, 0x4b, 0x12, 0xbe, 0x39, 0xc9, 0x8f, 0xc0,
  0xda, 0xf5, 0x16, 0x3e, 0xd1, 0x8c, 0x8c, 0xbf, 0x06, 0xcc, 0xe9, 0x3f,
  0xb6, 0x2f, 0xdc, 0xc0, 0xf8, 0x46, 0x90, 0xc0, 0x1a, 0xbc, 0x10, 0x40,
  0x07, 0xd9, 0x18, 0x40, 0x63, 0x11, 0x8b, 0x40, 0x25, 0x61, 0x01, 0x41,
  0x45, 0x16, 0x42, 0xbe, 0xbb, 0x27, 0x45, 0xc0, 0xe4, 0x86, 0x0c, 0x41,
  0xdb, 0xb6, 0x7f, 0x40, 0x5b, 0x54, 0x49, 0xc0, 0xc4, 0xa5, 0xea, 0x40,
  0x58, 0x2d, 0x4d, 0x40, 0x4b, 0x6a, 0xf3, 0x3f, 0x09, 0xe9, 0x53, 0x3f,
  0x14, 0xeb, 0x84, 0xc0, 0x57, 0x2c, 0x0a, 0x41, 0x71, 0x36, 0x5c, 0xc0,
  0xf3, 0xda, 0x2c, 0xbf, 0x48, 0x58, 0x80, 0xc0, 0x9d, 0x64, 0x39, 0xc0,
  0xf7, 0x90, 0x2d, 0x40, 0x96, 0x89, 0x24, 0x41, 0x25, 0x07, 0xdb, 0xc0,
  0xb5, 0xe8, 0x66, 0xc0, 0x83, 0x1b, 0x8e, 0xbf, 0x09, 0xda, 0x52, 0x3e,
  0xfb, 0x22, 0x54, 0x40, 0xb5, 0xf7, 0x19, 0x40, 0xca, 0xcd, 0x47, 0x3f,
  0x08, 0x7a, 0xf3, 0xbf, 0x6b, 0xbe, 0x02, 0x3d, 0xa6, 0x11, 0x08, 0x41,
  0x23, 0x44, 0x0a, 0x40, 0xab, 0x5e, 0x54, 0xbf, 0xc5, 0x4d, 0x58, 0xbf,
  0x6c, 0xc4, 0x1d, 0x40, 0xcf, 0x46, 0x3f, 0x41, 0x28, 0x8a, 0x72, 0x3f,
  0x47, 0x4a, 0xdb, 0x3f, 0xc0, 0xff, 0x1d, 0xbf, 0x28, 0x23, 0x83, 0x40,
  0x62, 0xa8, 0xa3, 0x40, 0x53, 0xee, 0xfe, 0x3f, 0x18, 0x37, 0xc3, 0x3f,
  0x87, 0xd3, 0xa9, 0x3f, 0x7b, 0x05, 0x11, 0x40, 0xb9, 0xff, 0x6c, 0xbe,
  0xa0, 0x1b, 0xe8, 0x40, 0x6c, 0x83, 0x6f, 0xc0, 0x8c, 0xf9, 0x22, 0x40,
  0x2f, 0x97, 0x1b, 0xc1, 0xd8, 0xbf, 0xe3, 0x3d, 0xc8, 0xc1, 0x04, 0xc0,
  0x75, 0xfc, 0x00, 0xc0, 0x00, 0x2e, 0xa9, 0x40, 0x30, 0x53, 0xce, 0xc0,
  0x84, 0x44, 0xe1, 0x3f, 0x50, 0x15, 0x0f, 0xc0, 0x91, 0xf8, 0xa6, 0x40,
  0x67, 0x92, 0x29, 0xc0, 0xaf, 0x4c, 0xab, 0x3e, 0x26, 0xae, 0xe1, 0xbf,
  0xc2, 0xdb, 0xa8, 0x3f, 0x1f, 0x6b, 0x9a, 0x40, 0x1b, 0xfe, 0x52, 0x40,
  0x0f, 0x16, 0xa0, 0xc0, 0x7a, 0x51, 0xba, 0xc0, 0x9a, 0xa2, 0x86, 0xc0,
  0xdc, 0x6a, 0x84, 0x40, 0x77, 0x23, 0x66, 0xbf, 0x74, 0xaf, 0x3c, 0xbf,
  0xbb, 0x4d, 0xcb, 0xc0, 0xfc, 0xce, 0x61, 0xbf, 0xbc, 0x5f, 0x44, 0xc0,
  0xfd, 0xa7, 0x6f, 0x40, 0xa8, 0x34, 0x0a, 0x3e, 0x27, 0x09, 0x7a, 0x40,
  0x6a, 0x34, 0x2e, 0xc0, 0xd8, 0x8e, 0x13, 0xbf, 0xea, 0x0b, 0x07, 0x40,
  0xfb, 0x84, 0xee, 0x3f, 0x76, 0x56, 0x8a, 0xc0, 0x85, 0xac, 0x87, 0xc0,
  0x54, 0x58, 0x40, 0x3f, 0xbb, 0xda, 0x9d, 0x3f, 0xcb, 0xd7, 0xcf, 0xc0,
  0xfa, 0x4b, 0xb4, 0x3f, 0x3c, 0xc9, 0xf9, 0xc0, 0x19, 0xea, 0x5a, 0x3f,
  0x43, 0xa1, 0x8c, 0xbf, 0x33, 0xf0, 0x2d, 0x40, 0x4e, 0x9b, 0x0b, 0xc1,
  0x17, 0x5b, 0xd9, 0xbf, 0xfe, 0x15, 0x88, 0x3f, 0x7f, 0x30, 0xed, 0x3f,
  0xe6, 0xe4, 0xfe, 0x40, 0x72, 0xae, 0x85, 0x40, 0x3b, 0x21, 0xf4, 0xbe,
  0x25, 0x72, 0x7e, 0xc0, 0xf2, 0xa4, 0x02, 0x40, 0x9c, 0x21, 0x15, 0x41,
  0x78, 0xb3, 0x40, 0xc0, 0x98, 0x8c, 0x63, 0x40, 0x1b, 0x39, 0x34, 0x41,
  0x50, 0x2a, 0x28, 0xbf, 0xf3, 0x57, 0x99, 0x40, 0x15, 0x1d, 0x3e, 0xc0,
  0xce, 0x1a, 0xd2, 0x3f, 0x3a, 0xe3, 0xf4, 0xbe, 0x82, 0xf0, 0x39, 0xbf,
  0xdf, 0xc0, 0x80, 0xbe, 0x3c, 0xa6, 0x14, 0x40, 0xa8, 0x15, 0x04, 0x40,
  0x58, 0xdf, 0x3d, 0xbf, 0xf5, 0x2b, 0x87, 0x40, 0xea, 0x10, 0xc9, 0xbf,
  0x27, 0x00, 0xe9, 0xbf, 0xc3, 0x16, 0xfa, 0x40, 0xff, 0x4a, 0xbc, 0xc0,
  0x8a, 0xcc, 0x22, 0xc1, 0x02, 0xd8, 0xa2, 0x3f, 0x74, 0xd7, 0x32, 0x3e,
  0xc8, 0xf8, 0x80, 0x40, 0x0d, 0xd1, 0x40, 0xbe, 0x84, 0xa0, 0x5d, 0xbf,
  0x21, 0x28, 0xe5, 0xbf, 0x01, 0x4f, 0x61, 0xbf, 0x40, 0xbf, 0xef, 0xbf,
  0x8f, 0x21, 0x3c, 0x3f, 0xcc, 0x61, 0xe3, 0xbf, 0xfa, 0x20, 0xa4, 0x40,
  0x63, 0x7b, 0x6f, 0xc0, 0x8b, 0xf9, 0xc0, 0x40, 0x10, 0x43, 0xc8, 0x3f,
  0xad, 0xc9, 0xe6, 0xbf, 0x23, 0x86, 0x1a, 0x40, 0x1b, 0x5b, 0x20, 0x40,
  0x3e, 0x09, 0x8f, 0x40, 0x2d, 0xf2, 0x1b, 0x41, 0x5e, 0x1e, 0x0c, 0x40,
  0x30, 0x1d, 0xcf, 0xc0, 0x05, 0xe7, 0xb5, 0xbf, 0x6a, 0xdb, 0x0a, 0x40,
  0x38, 0x17, 0xf3, 0xbf, 0x4c, 0xe9, 0x7a, 0xbf, 0xf1, 0x4e, 0x4c, 0x40,
  0x7b, 0x94, 0xad, 0x40, 0x0c, 0x00, 0x11, 0x40, 0x23, 0x99, 0xb2, 0x3f,
  0xbf, 0xe3, 0xea, 0xc0, 0x8f, 0xdc, 0x47, 0x40, 0xf4, 0x13, 0xbc, 0x40,
  0x1c, 0x50, 0xd0, 0xbf, 0xd3, 0xd0, 0xff, 0xbf, 0xbb, 0x4c, 0x8f, 0xc0,
  0x6d, 0x02, 0x21, 0x41, 0x1f, 0x64, 0x94, 0xbe, 0x9e, 0x45, 0x0d, 0x40,
  0x6a, 0xf6, 0xca, 0xbe, 0xf5, 0x7d, 0x05, 0xc0, 0x51, 0xf5, 0x5c, 0xc0,
  0x6f, 0x90, 0xa7, 0xc0, 0xaf, 0x2e, 0x61, 0xc0, 0x70, 0x48, 0xa9, 0x3e,
  0x78, 0x85, 0x7c, 0xc0, 0xea, 0x0e, 0x10, 0xbe, 0xcd, 0xca, 0x37, 0x40,
  0x41, 0xb3, 0x4e, 0xbe, 0xa5, 0xa6, 0x8d, 0x40, 0x98, 0x71, 0x95, 0x40,
  0x54, 0x6d, 0xbd, 0xc0, 0xb4, 0xdd, 0x60, 0x40, 0x41, 0xfc, 0x00, 0xc1,
  0x9a, 0x17, 0x02, 0x40, 0x74, 0x83, 0x01, 0xc0, 0x11, 0xcd, 0x20, 0x41,
  0x79, 0x6d, 0x16, 0xc0, 0x97, 0x6f, 0xdb, 0xbf, 0x8d, 0x95, 0xe4, 0x3f,
  0xc5, 0x26, 0x02, 0xc0, 0x49, 0x0e, 0x36, 0xbf, 0xb9, 0x13, 0xa1, 0xc0,
  0xfd, 0x9d, 0x46, 0xc0, 0x41, 0xef, 0x29, 0xc0, 0xc9, 0x61, 0x04, 0xbf,
  0xa9, 0x2e, 0x1f, 0xbe, 0x46, 0x28, 0xde, 0xc0, 0x59, 0xcd, 0x84, 0xc0,
  0xd7, 0xbc, 0xa4, 0x3f, 0x47, 0x96, 0xf3, 0xbe, 0x47, 0xfa, 0x0d, 0x3e,
  0xee, 0xa5, 0xcb, 0xc0, 0x52, 0x7e, 0xc0, 0x40, 0x80, 0x9b, 0xfa, 0x3e,
  0xc5, 0xf9, 0x82, 0xc0, 0x14, 0x4f, 0x58, 0x40, 0x6d, 0xd3, 0xc0, 0x3f,
  0x5b, 0x8a, 0x0b, 0x3f, 0xdd, 0x0e, 0x3c, 0xc0, 0x7d, 0x2e, 0xd8, 0x40,
  0x83, 0x25, 0x3b, 0x3d, 0xc5, 0x65, 0xdd, 0x40, 0xe3, 0x96, 0xe8, 0xbf,
  0x13, 0x8c, 0x1b, 0xc0, 0xcd, 0x01, 0x13, 0xc0, 0xd8, 0x05, 0xc1, 0x3e,
  0x10, 0x2c, 0x67, 0xc0, 0x37, 0xa5, 0x46, 0xbf, 0x02, 0x84, 0x05, 0x40,
  0x92, 0xf3, 0x2f, 0x40, 0x20, 0xea, 0x18, 0x41, 0x0b, 0x37, 0x06, 0xc0,
  0x2c, 0x7e, 0xd8, 0x3f, 0xd8, 0x84, 0x91, 0x3f, 0x01, 0x7e, 0x94, 0xc0,
  0xb0, 0x12, 0xf3, 0xc0, 0x91, 0x34, 0x84, 0x3f, 0x46, 0xed, 0xc3, 0xbe,
  0xee, 0xd1, 0x91, 0x40, 0x1a, 0xd7, 0x8e, 0x40, 0x01, 0x26, 0xa3, 0xbf,
  0xa3, 0x80, 0xc7, 0x3e, 0x2a, 0x3d, 0x9c, 0x3f, 0xb8, 0x1b, 0x0c, 0x41,
  0xe7, 0x49, 0xb4, 0xbf, 0xaf, 0x1b, 0x4b, 0x40, 0x7d, 0x22, 0xc7, 0xbf,
  0xc5, 0xea, 0x31, 0xc0, 0x8b, 0x3b, 0xd5, 0xc0, 0xe4, 0xb8, 0xac, 0x3f,
  0x78, 0xec, 0x61, 0xbf, 0xcf, 0x65, 0x52, 0x3f, 0x82, 0x84, 0x03, 0xc0,
  0x5d, 0xa7, 0xac, 0xc0, 0x2a, 0x51, 0xa0, 0x40, 0x73, 0xdc, 0x65, 0x3f,
  0xe0, 0x50, 0xc8, 0x40, 0xaa, 0x8e, 0x54, 0xbf, 0x93, 0x93, 0x16, 0x40,
  0x15, 0x3b, 0x1a, 0xc0, 0x42, 0x85, 0x2f, 0x40, 0xb7, 0xa8, 0x24, 0x40,
  0x43, 0x26, 0x92, 0x40, 0xc5, 0x13, 0x56, 0x40, 0x5d, 0xe4, 0xe4, 0xbf,
  0x0a, 0xe4, 0xd6, 0xbe, 0x0c, 0x6e, 0xb7, 0x3e, 0xb7, 0xaa, 0x1c, 0xc1,
  0xfc, 0xdf, 0x41, 0xbf, 0x76, 0xe9, 0x85, 0xbf, 0xd8, 0x99, 0x36, 0xc0,
  0x7c, 0xc1, 0xe1, 0x3f, 0x56, 0x9a, 0x33, 0x40, 0x3c, 0x1e, 0xcb, 0xbf,
  0xb7, 0x50, 0x0c, 0xc0, 0xe6, 0xc5, 0xf0, 0xbf, 0x8b, 0x4d, 0x33, 0xbf,
  0xa9, 0x40, 0x31, 0xc0, 0x7e, 0xcc, 0x88, 0x40, 0xa4, 0x70, 0xa1, 0x3d,
  0xa3, 0x3c, 0xae, 0x40, 0x6f, 0x4b, 0x01, 0xc0, 0x29, 0xb8, 0x11, 0x40,
  0x1d, 0xc4, 0x2b, 0x41, 0xe8, 0xc3, 0xdd, 0x3f, 0x5d, 0x68, 0xa0, 0x40,
  0x40, 0x8b, 0x42, 0x40, 0xa5, 0x2e, 0x1e, 0x40, 0xff, 0x21, 0x19, 0xbf,
  0xfd, 0x75, 0xd3, 0x3f, 0xc0, 0x95, 0x76, 0x3f, 0x3a, 0x29, 0xde, 0x3e,
  0x55, 0xe9, 0x72, 0xc0, 0x3d, 0x29, 0x06, 0xc0, 0xeb, 0x44, 0x48, 0xc0,
  0xf7, 0xdb, 0x35, 0xc0, 0x26, 0x7e, 0xba, 0x3f, 0xaa, 0x21, 0xc6, 0x40,
  0x01, 0xae, 0x87, 0x40, 0x23, 0xa7, 0x03, 0xc1, 0x44, 0x4b, 0xd7, 0xbf,
  0xc8, 0x63, 0xa2, 0x3e, 0xaa, 0xf8, 0xc8, 0xc0, 0x19, 0x21, 0x9e, 0xc0,
  0xa6, 0xcd, 0x01, 0xbf, 0x11, 0xda, 0xeb, 0xbf, 0x89, 0xbb, 0xe3, 0x3e,
  0x5d, 0x51, 0x97, 0x40, 0x2e, 0xbe, 0x2e, 0x40, 0x9f, 0x47, 0xba, 0x40,
  0x5e, 0xed, 0x65, 0x40, 0xca, 0x0f, 0x96, 0x3e, 0xa8, 0x97, 0xcc, 0x40,
  0x7a, 0x84, 0xc9, 0xbf, 0xdb, 0x69, 0x8b, 0xc0, 0x26, 0x55, 0x87, 0xbe,
  0x58, 0x6a, 0x89, 0xc0, 0xec, 0x8a, 0xcb, 0x3e, 0x91, 0x2b, 0x97, 0xc0,
  0x86, 0x80, 0x06, 0xbe, 0x60, 0x70, 0xcb, 0xc0, 0x17, 0x9f, 0x9f, 0x3f,
  0xab, 0x39, 0xc8, 0xbf, 0x1c, 0x97, 0x54, 0x40, 0x0c, 0x89, 0xbc, 0x3f,
  0xf7, 0x56, 0x14, 0xc0, 0x2d, 0xed, 0x13, 0xc0, 0xc7, 0xb1, 0x51, 0x3e,
  0x3e, 0x93, 0xb9, 0x3f, 0x79, 0xea, 0x15, 0x40, 0x82, 0x59, 0x12, 0xc0,
  0xfa, 0xee, 0x92, 0x3e, 0x6c, 0x6b, 0x21, 0x3f, 0x7b, 0x93, 0x2a, 0x3e,
  0xf1, 0xb2, 0x41, 0x40, 0x2d, 0x31, 0x93, 0xc0, 0x7f, 0xa8, 0xba, 0xbf,
  0x8f, 0x3f, 0x1a, 0xc0, 0x78, 0x3e, 0xf0, 0xbf, 0x87, 0x55, 0xb4, 0xc0,
  0x39, 0x83, 0xb1, 0xbf, 0xd2, 0x33, 0x47, 0x40, 0xfe, 0x47, 0x15, 0x40,
  0xc4, 0xc2, 0x8f, 0x40, 0x91, 0x25, 0xce, 0xc0, 0xdb, 0x13, 0xc7, 0x3e,
  0x19, 0x87, 0x8a, 0xc0, 0x0b, 0xbd, 0x09, 0xc1, 0x29, 0xdc, 0xcd, 0xc0,
  0xd4, 0x9d, 0x96, 0x40, 0xe8, 0x39, 0x91, 0xc0, 0x37, 0xef, 0x38, 0x40,
  0x48, 0x12, 0xc7, 0x3f, 0xf5, 0x17, 0x83, 0xbc, 0xbe, 0xbc, 0x14, 0x40,
  0xdb, 0xd1, 0x33, 0x41, 0xbe, 0x7c, 0xb6, 0x3e, 0x11, 0xe2, 0x2e, 0x40,
  0x7f, 0x60, 0x7e, 0xc0, 0xfb, 0xca, 0xbe, 0x3f, 0x85, 0x19, 0x1a, 0x40,
  0xc1, 0xfd, 0xb3, 0x40, 0x0d, 0xf4, 0x1f, 0x41, 0x1b, 0x60, 0x5c, 0x40,
  0x1a, 0x96, 0xb6, 0x3e, 0x06, 0x7d, 0x03, 0x40, 0xce, 0x8f, 0x58, 0xc0,
  0x4b, 0x36, 0xd0, 0x3f, 0x95, 0x2b, 0x33, 0x40, 0x32, 0x6f, 0xaa, 0xbe,
  0x68, 0x3a, 0x45, 0xbe, 0x04, 0x73, 0x16, 0x40, 0xc7, 0xc5, 0x1e, 0x3e,
  0x38, 0x29, 0xad, 0xc0, 0x4a, 0xf6, 0xd1, 0xc0, 0x8b, 0xa2, 0x77, 0xc0,
  0x36, 0x5f, 0xb0, 0xbf, 0xbb, 0x5c, 0x82, 0xbf, 0x20, 0x6b, 0x8a, 0xc0,
  0xd2, 0xff, 0xff, 0xff, 0x04, 0x00, 0x00, 0x00, 0x20, 0x00, 0x00, 0x00,
  0x49, 0x8a, 0x71, 0x3e, 0x0e, 0x8b, 0x4e, 0x3f, 0x7d, 0x27, 0x71, 0xbd,
  0x76, 0xdc, 0xe0, 0xbe, 0x8a, 0x7f, 0x33, 0x3f, 0xdf, 0xeb, 0xe2, 0x3d,
  0x2b, 0x72, 0x27, 0x3f, 0x61, 0x5c, 0x3a, 0x3e, 0x00, 0x00, 0x06, 0x00,
  0x08, 0x00, 0x04, 0x00, 0x06, 0x00, 0x00, 0x00, 0x04, 0x00, 0x00, 0x00,
  0x00, 0x02, 0x00, 0x00, 0x0e, 0x76, 0x92, 0x3e, 0x82, 0x40, 0x9b, 0xbe,
  0xbb, 0x24, 0xb7, 0xbe, 0xa4, 0x81, 0x99, 0x3d, 0x90, 0x88, 0x74, 0x3e,
  0x92, 0x52, 0xd7, 0xbe, 0x71, 0xb6, 0x2f, 0xbe, 0x01, 0x5f, 0xa6, 0x3e,
  0xb8, 0xb3, 0x73, 0x3e, 0x97, 0xea, 0x86, 0xbe, 0xdc, 0x44, 0xbb, 0xbe,
  0x08, 0x31, 0x89, 0xbe, 0x04, 0x35, 0xe6, 0xbe, 0x25, 0x9e, 0x4c, 0x3e,
  0xfe, 0x5a, 0x9f, 0xbc, 0x0f, 0xbb, 0x4e, 0x3e, 0x75, 0xf1, 0xbe, 0x3e,
  0x03, 0xc5, 0x9f, 0x3d, 0x2d, 0x8a, 0x87, 0x3d, 0xc0, 0x4f, 0x2d, 0xbd,
  0xa8, 0x91, 0x09, 0xbe, 0x35, 0x1c, 0x09, 0xbe, 0x3f, 0x6e, 0xf2, 0xbe,
  0x50, 0x3c, 0xbb, 0xbd, 0x82, 0x9c, 0x07, 0xbf, 0x9d, 0xbf, 0xd9, 0xbd,
  0xbc, 0x8c, 0x88, 0x3d, 0xd1, 0xe1, 0xb1, 0xbe, 0x36, 0x15, 0x70, 0x3d,
  0xa7, 0x26, 0x95, 0xbe, 0xeb, 0x85, 0x4a, 0x3e, 0xb5, 0x3b, 0x09, 0x3d,
  0xe5, 0xdd, 0x83, 0x3d, 0x82, 0x43, 0x85, 0xbe, 0xe2, 0x54, 0xaa, 0xbd,
  0x21, 0x22, 0x3f, 0xbe, 0x6d, 0x74, 0xa9, 0xbc, 0x0a, 0x14, 0xd6, 0xbe,
  0x5f, 0xa9, 0xc5, 0x3e, 0x49, 0xbb, 0x3f, 0xbd, 0xda, 0xa1, 0x90, 0xbe,
  0x3b, 0x3e, 0xeb, 0x3e, 0xa7, 0x60, 0x34, 0xbf, 0xfa, 0xf9, 0x37, 0xbe,
  0xc0, 0x8f, 0x5c, 0xbe, 0x32, 0x33, 0x20, 0x3f, 0xaa, 0x44, 0x09, 0x3e,
  0x07, 0x40, 0x17, 0x3e, 0xa6, 0x63, 0xdd, 0x3e, 0xb8, 0xc3, 0x4e, 0x3c,
  0xbc, 0xea, 0x12, 0xbc, 0xcd, 0x74, 0xe8, 0x3e, 0x94, 0xc7, 0xd2, 0x3d,
  0xee, 0x7a, 0x16, 0xbe, 0x3c, 0x07, 0x82, 0x3e, 0x64, 0xd5, 0xfd, 0xbd,
  0xc6, 0xad, 0x86, 0x3e, 0x6f, 0xe2, 0xcb, 0xbe, 0xb4, 0x5b, 0x06, 0x3f,
  0xd4, 0xba, 0xbd, 0xbe, 0x41, 0xef, 0x0b, 0x3e, 0xe2, 0x55, 0x09, 0x3d,
  0x20, 0xae, 0x0e, 0x3f, 0x88, 0x69, 0x75, 0x3f, 0x44, 0xaf, 0xce, 0x3e,
  0x4d, 0xa8, 0x5d, 0xbe, 0xec, 0x9d, 0x19, 0x3e, 0x41, 0xa0, 0x3b, 0x3d,
  0xab, 0xc2, 0x82, 0xbd, 0x62, 0xc4, 0x49, 0xbf, 0x92, 0xde, 0x35, 0xbf,
  0xeb, 0xae, 0x13, 0xbd, 0x0d, 0xf3, 0x3a, 0x3f, 0x1d, 0x6a, 0x04, 0xbf,
  0x60, 0x43, 0x67, 0xbf, 0x5d, 0x68, 0x5b, 0x3e, 0xc2, 0x61, 0x93, 0xbe,
  0x10, 0x48, 0xad, 0x3e, 0x8e, 0x1b, 0x3b, 0xbf, 0x1e, 0x0e, 0x1b, 0x3f,
  0x05, 0x98, 0xa4, 0x3e, 0xd0, 0x66, 0x8b, 0xbe, 0xf4, 0x6e, 0xa7, 0x3e,
  0xfe, 0xfc, 0x68, 0x3e, 0xd9, 0x8d, 0x40, 0xbd, 0x11, 0x5f, 0x75, 0x3d,
  0xe2, 0xd7, 0xa6, 0xbe, 0x9e, 0x4a, 0x40, 0x3d, 0x56, 0x78, 0x7b, 0x3e,
  0x96, 0x08, 0xf9, 0xbe, 0x91, 0x87, 0x49, 0xbf, 0xfa, 0x7d, 0x54, 0xbe,
  0xc9, 0xeb, 0xb3, 0x3e, 0x37, 0x21, 0x28, 0xbe, 0x3c, 0x99, 0x52, 0xbe,
  0x11, 0x5c, 0x98, 0x3e, 0x78, 0x0a, 0xb8, 0x3e, 0xe7, 0xe5, 0x3a, 0x3e,
  0x76, 0x2d, 0x85, 0xbd, 0x8e, 0x52, 0xa1, 0xbd, 0x2d, 0x34, 0x6c, 0xbe,
  0xec, 0xae, 0x91, 0x3b, 0x6e, 0x4e, 0x08, 0xbf, 0xd0, 0x9d, 0xda, 0xbe,
  0xa0, 0x10, 0x14, 0xbf, 0xcd, 0x68, 0xf7, 0xbe, 0xdd, 0x29, 0x68, 0xbb,
  0x5f, 0xe3, 0x30, 0xbe, 0xe2, 0x81, 0x29, 0x3f, 0x20, 0x89, 0x94, 0xbe,
  0x6c, 0x38, 0x3c, 0xbe, 0x6d, 0x84, 0x8a, 0x3e, 0xab, 0x7e, 0x97, 0xbe,
  0x09, 0xc1, 0x89, 0x3c, 0xd3, 0x93, 0xa5, 0xbd, 0x74, 0xab, 0x51, 0xbe,
  0x25, 0x18, 0x04, 0xbf, 0x6e, 0xfa, 0xc7, 0x3e, 0x8b, 0xb1, 0x19, 0xbe,
  0x89, 0xa3, 0x77, 0xbd, 0x65, 0x9b, 0x98, 0xbe, 0xdc, 0xbb, 0x2e, 0xbd,
  0x81, 0x97, 0x00, 0xbf, 0x95, 0xa9, 0xae, 0x3e, 0x4b, 0x03, 0x6a, 0xbe,
  0x24, 0x20, 0xff, 0x3c, 0xa6, 0x35, 0x15, 0xbf, 0x66, 0xba, 0x61, 0xbc,
  0x1c, 0xf9, 0xff, 0xff, 0x20, 0xf9, 0xff, 0xff, 0x0f, 0x00, 0x00, 0x00,
  0x4d, 0x4c, 0x49, 0x52, 0x20, 0x43, 0x6f, 0x6e, 0x76, 0x65, 0x72, 0x74,
  0x65, 0x64, 0x2e, 0x00, 0x01, 0x00, 0x00, 0x00, 0x14, 0x00, 0x00, 0x00,
  0x00, 0x00, 0x0e, 0x00, 0x18, 0x00, 0x14, 0x00, 0x10, 0x00, 0x0c, 0x00,
  0x08, 0x00, 0x04, 0x00, 0x0e, 0x00, 0x00, 0x00, 0x14, 0x00, 0x00, 0x00,
  0x1c, 0x00, 0x00, 0x00, 0x10, 0x01, 0x00, 0x00, 0x14, 0x01, 0x00, 0x00,
  0x18, 0x01, 0x00, 0x00, 0x04, 0x00, 0x00, 0x00, 0x6d, 0x61, 0x69, 0x6e,
  0x00, 0x00, 0x00, 0x00, 0x04, 0x00, 0x00, 0x00, 0xb8, 0x00, 0x00, 0x00,
  0x70, 0x00, 0x00, 0x00, 0x38, 0x00, 0x00, 0x00, 0x04, 0x00, 0x00, 0x00,
  0x66, 0xff, 0xff, 0xff, 0x10, 0x00, 0x00, 0x00, 0x00, 0x00, 0x00, 0x08,
  0x0c, 0x00, 0x00, 0x00, 0x10, 0x00, 0x00, 0x00, 0x9c, 0xf9, 0xff, 0xff,
  0x01, 0x00, 0x00, 0x00, 0x0c, 0x00, 0x00, 0x00, 0x03, 0x00, 0x00, 0x00,
  0x0b, 0x00, 0x00, 0x00, 0x05, 0x00, 0x00, 0x00, 0x06, 0x00, 0x00, 0x00,
  0x96, 0xff, 0xff, 0xff, 0x10, 0x00, 0x00, 0x00, 0x00, 0x00, 0x00, 0x08,
  0x10, 0x00, 0x00, 0x00, 0x14, 0x00, 0x00, 0x00, 0x86, 0xff, 0xff, 0xff,
  0x00, 0x00, 0x00, 0x01, 0x01, 0x00, 0x00, 0x00, 0x0b, 0x00, 0x00, 0x00,
  0x03, 0x00, 0x00, 0x00, 0x0a, 0x00, 0x00, 0x00, 0x01, 0x00, 0x00, 0x00,
  0x02, 0x00, 0x00, 0x00, 0xca, 0xff, 0xff, 0xff, 0x10, 0x00, 0x00, 0x00,
  0x00, 0x00, 0x00, 0x08, 0x10, 0x00, 0x00, 0x00, 0x14, 0x00, 0x00, 0x00,
  0xba, 0xff, 0xff, 0xff, 0x00, 0x00, 0x00, 0x01, 0x01, 0x00, 0x00, 0x00,
  0x0a, 0x00, 0x00, 0x00, 0x03, 0x00, 0x00, 0x00, 0x09, 0x00, 0x00, 0x00,
  0x03, 0x00, 0x00, 0x00, 0x04, 0x00, 0x00, 0x00, 0x00, 0x00, 0x0e, 0x00,
  0x16, 0x00, 0x00, 0x00, 0x10, 0x00, 0x0c, 0x00, 0x0b, 0x00, 0x04, 0x00,
  0x0e, 0x00, 0x00, 0x00, 0x18, 0x00, 0x00, 0x00, 0x00, 0x00, 0x00, 0x08,
  0x18, 0x00, 0x00, 0x00, 0x1c, 0x00, 0x00, 0x00, 0x00, 0x00, 0x06, 0x00,
  0x08, 0x00, 0x07, 0x00, 0x06, 0x00, 0x00, 0x00, 0x00, 0x00, 0x00, 0x01,
  0x01, 0x00, 0x00, 0x00, 0x09, 0x00, 0x00, 0x00, 0x03, 0x00, 0x00, 0x00,
  0x00, 0x00, 0x00, 0x00, 0x08, 0x00, 0x00, 0x00, 0x07, 0x00, 0x00, 0x00,
  0x01, 0x00, 0x00, 0x00, 0x0c, 0x00, 0x00, 0x00, 0x01, 0x00, 0x00, 0x00,
  0x00, 0x00, 0x00, 0x00, 0x0d, 0x00, 0x00, 0x00, 0x58, 0x05, 0x00, 0x00,
  0x00, 0x05, 0x00, 0x00, 0xac, 0x04, 0x00, 0x00, 0x6c, 0x04, 0x00, 0x00,
  0x30, 0x04, 0x00, 0x00, 0xf0, 0x03, 0x00, 0x00, 0xb4, 0x03, 0x00, 0x00,
  0x78, 0x03, 0x00, 0x00, 0x24, 0x03, 0x00, 0x00, 0x80, 0x02, 0x00, 0x00,
  0x70, 0x01, 0x00, 0x00, 0x60, 0x00, 0x00, 0x00, 0x04, 0x00, 0x00, 0x00,
  0xf2, 0xfa, 0xff, 0xff, 0x00, 0x00, 0x00, 0x01, 0x14, 0x00, 0x00, 0x00,
  0x1c, 0x00, 0x00, 0x00, 0x1c, 0x00, 0x00, 0x00, 0x0d, 0x00, 0x00, 0x00,
  0x34, 0x00, 0x00, 0x00, 0x02, 0x00, 0x00, 0x00, 0xff, 0xff, 0xff, 0xff,
  0x01, 0x00, 0x00, 0x00, 0xdc, 0xfa, 0xff, 0xff, 0x1b, 0x00, 0x00, 0x00,
  0x53, 0x74, 0x61, 0x74, 0x65, 0x66, 0x75, 0x6c, 0x50, 0x61, 0x72, 0x74,
  0x69, 0x74, 0x69, 0x6f, 0x6e, 0x65, 0x64, 0x43, 0x61, 0x6c, 0x6c, 0x5f,
  0x31, 0x3a, 0x30, 0x00, 0x02, 0x00, 0x00, 0x00, 0x01, 0x00, 0x00, 0x00,
  0x01, 0x00, 0x00, 0x00, 0x4a, 0xfb, 0xff, 0xff, 0x00, 0x00, 0x00, 0x01,
  0x14, 0x00, 0x00, 0x00, 0x1c, 0x00, 0x00, 0x00, 0x1c, 0x00, 0x00, 0x00,
  0x0c, 0x00, 0x00, 0x00, 0xe8, 0x00, 0x00, 0x00, 0x02, 0x00, 0x00, 0x00,
  0xff, 0xff, 0xff, 0xff, 0x08, 0x00, 0x00, 0x00, 0x34, 0xfb, 0xff, 0xff,
  0xcf, 0x00, 0x00, 0x00, 0x73, 0x65, 0x71, 0x75, 0x65, 0x6e, 0x74, 0x69,
  0x61, 0x6c, 0x5f, 0x33, 0x5f, 0x31, 0x2f, 0x62, 0x61, 0x74, 0x63, 0x68,
  0x5f, 0x6e, 0x6f, 0x72, 0x6d, 0x61, 0x6c, 0x69, 0x7a, 0x61, 0x74, 0x69,
  0x6f, 0x6e, 0x5f, 0x35, 0x5f, 0x31, 0x2f, 0x62, 0x61, 0x74, 0x63, 0x68,
  0x6e, 0x6f, 0x72, 0x6d, 0x2f, 0x6d, 0x75, 0x6c, 0x5f, 0x31, 0x3b, 0x73,
  0x65, 0x71, 0x75, 0x65, 0x6e, 0x74, 0x69, 0x61, 0x6c, 0x5f, 0x33, 0x5f,
  0x31, 0x2f, 0x62, 0x61, 0x74, 0x63, 0x68, 0x5f, 0x6e, 0x6f, 0x72, 0x6d,
  0x61, 0x6c, 0x69, 0x7a, 0x61, 0x74, 0x69, 0x6f, 0x6e, 0x5f, 0x35, 0x5f,
  0x31, 0x2f, 0x62, 0x61, 0x74, 0x63, 0x68, 0x6e, 0x6f, 0x72, 0x6d, 0x2f,
  0x61, 0x64, 0x64, 0x5f, 0x31, 0x3b, 0x73, 0x65, 0x71, 0x75, 0x65, 0x6e,
  0x74, 0x69, 0x61, 0x6c, 0x5f, 0x33, 0x5f, 0x31, 0x2f, 0x64, 0x65, 0x6e,
  0x73, 0x65, 0x5f, 0x31, 0x33, 0x5f, 0x31, 0x2f, 0x4d, 0x61, 0x74, 0x4d,
  0x75, 0x6c, 0x3b, 0x73, 0x65, 0x71, 0x75, 0x65, 0x6e, 0x74, 0x69, 0x61,
  0x6c, 0x5f, 0x33, 0x5f, 0x31, 0x2f, 0x64, 0x65, 0x6e, 0x73, 0x65, 0x5f,
  0x31, 0x33, 0x5f, 0x31, 0x2f, 0x52, 0x65, 0x6c, 0x75, 0x3b, 0x73, 0x65,
  0x71, 0x75, 0x65, 0x6e, 0x74, 0x69, 0x61, 0x6c, 0x5f, 0x33, 0x5f, 0x31,
  0x2f, 0x64, 0x65, 0x6e, 0x73, 0x65, 0x5f, 0x31, 0x33, 0x5f, 0x31, 0x2f,
  0x42, 0x69, 0x61, 0x73, 0x41, 0x64, 0x64, 0x00, 0x02, 0x00, 0x00, 0x00,
  0x01, 0x00, 0x00, 0x00, 0x08, 0x00, 0x00, 0x00, 0x56, 0xfc, 0xff, 0xff,
  0x00, 0x00, 0x00, 0x01, 0x14, 0x00, 0x00, 0x00, 0x1c, 0x00, 0x00, 0x00,
  0x1c, 0x00, 0x00, 0x00, 0x0b, 0x00, 0x00, 0x00, 0xe8, 0x00, 0x00, 0x00,
  0x02, 0x00, 0x00, 0x00, 0xff, 0xff, 0xff, 0xff, 0x10, 0x00, 0x00, 0x00,
  0x40, 0xfc, 0xff, 0xff, 0xcf, 0x00, 0x00, 0x00, 0x73, 0x65, 0x71, 0x75,
  0x65, 0x6e, 0x74, 0x69, 0x61, 0x6c, 0x5f, 0x33, 0x5f, 0x31, 0x2f, 0x62,
  0x61, 0x74, 0x63, 0x68, 0x5f, 0x6e, 0x6f, 0x72, 0x6d, 0x61, 0x6c, 0x69,
  0x7a, 0x61, 0x74, 0x69, 0x6f, 0x6e, 0x5f, 0x34, 0x5f, 0x31, 0x2f, 0x62,
  0x61, 0x74, 0x63, 0x68, 0x6e, 0x6f, 0x72, 0x6d, 0x2f, 0x6d, 0x75, 0x6c,
  0x5f, 0x31, 0x3b, 0x73, 0x65, 0x71, 0x75, 0x65, 0x6e, 0x74, 0x69, 0x61,
  0x6c, 0x5f, 0x33, 0x5f, 0x31, 0x2f, 0x62, 0x61, 0x74, 0x63, 0x68, 0x5f,
  0x6e, 0x6f, 0x72, 0x6d, 0x61, 0x6c, 0x69, 0x7a, 0x61, 0x74, 0x69, 0x6f,
  0x6e, 0x5f, 0x34, 0x5f, 0x31, 0x2f, 0x62, 0x61, 0x74, 0x63, 0x68, 0x6e,
  0x6f, 0x72, 0x6d, 0x2f, 0x61, 0x64, 0x64, 0x5f, 0x31, 0x3b, 0x73, 0x65,
  0x71, 0x75, 0x65, 0x6e, 0x74, 0x69, 0x61, 0x6c, 0x5f, 0x33, 0x5f, 0x31,
  0x2f, 0x64, 0x65, 0x6e, 0x73, 0x65, 0x5f, 0x31, 0x32, 0x5f, 0x31, 0x2f,
  0x4d, 0x61, 0x74, 0x4d, 0x75, 0x6c, 0x3b, 0x73, 0x65, 0x71, 0x75, 0x65,
  0x6e, 0x74, 0x69, 0x61, 0x6c, 0x5f, 0x33, 0x5f, 0x31, 0x2f, 0x64, 0x65,
  0x6e, 0x73, 0x65, 0x5f, 0x31, 0x32, 0x5f, 0x31, 0x2f, 0x52, 0x65, 0x6c,
  0x75, 0x3b, 0x73, 0x65, 0x71, 0x75, 0x65, 0x6e, 0x74, 0x69, 0x61, 0x6c,
  0x5f, 0x33, 0x5f, 0x31, 0x2f, 0x64, 0x65, 0x6e, 0x73, 0x65, 0x5f, 0x31,
  0x32, 0x5f, 0x31, 0x2f, 0x42, 0x69, 0x61, 0x73, 0x41, 0x64, 0x64, 0x00,
  0x02, 0x00, 0x00, 0x00, 0x01, 0x00, 0x00, 0x00, 0x10, 0x00, 0x00, 0x00,
  0x62, 0xfd, 0xff, 0xff, 0x00, 0x00, 0x00, 0x01, 0x14, 0x00, 0x00, 0x00,
  0x1c, 0x00, 0x00, 0x00, 0x1c, 0x00, 0x00, 0x00, 0x0a, 0x00, 0x00, 0x00,
  0x7c, 0x00, 0x00, 0x00, 0x02, 0x00, 0x00, 0x00, 0xff, 0xff, 0xff, 0xff,
  0x20, 0x00, 0x00, 0x00, 0x4c, 0xfd, 0xff, 0xff, 0x61, 0x00, 0x00, 0x00,
  0x73, 0x65, 0x71, 0x75, 0x65, 0x6e, 0x74, 0x69, 0x61, 0x6c, 0x5f, 0x33,
  0x5f, 0x31, 0x2f, 0x64, 0x65, 0x6e, 0x73, 0x65, 0x5f, 0x31, 0x31, 0x5f,
  0x31, 0x2f, 0x4d, 0x61, 0x74, 0x4d, 0x75, 0x6c, 0x3b, 0x73, 0x65, 0x71,
  0x75, 0x65, 0x6e, 0x74, 0x69, 0x61, 0x6c, 0x5f, 0x33, 0x5f, 0x31, 0x2f,
  0x64, 0x65, 0x6e, 0x73, 0x65, 0x5f, 0x31, 0x31, 0x5f, 0x31, 0x2f, 0x52,
  0x65, 0x6c, 0x75, 0x3b, 0x73, 0x65, 0x71, 0x75, 0x65, 0x6e, 0x74, 0x69,
  0x61, 0x6c, 0x5f, 0x33, 0x5f, 0x31, 0x2f, 0x64, 0x65, 0x6e, 0x73, 0x65,
  0x5f, 0x31, 0x31, 0x5f, 0x31, 0x2f, 0x42, 0x69, 0x61, 0x73, 0x41, 0x64,
  0x64, 0x00, 0x00, 0x00, 0x02, 0x00, 0x00, 0x00, 0x01, 0x00, 0x00, 0x00,
  0x20, 0x00, 0x00, 0x00, 0x56, 0xfe, 0xff, 0xff, 0x00, 0x00, 0x00, 0x01,
  0x10, 0x00, 0x00, 0x00, 0x10, 0x00, 0x00, 0x00, 0x09, 0x00, 0x00, 0x00,
  0x30, 0x00, 0x00, 0x00, 0xdc, 0xfd, 0xff, 0xff, 0x20, 0x00, 0x00, 0x00,
  0x73, 0x65, 0x71, 0x75, 0x65, 0x6e, 0x74, 0x69, 0x61, 0x6c, 0x5f, 0x33,
  0x5f, 0x31, 0x2f, 0x64, 0x65, 0x6e, 0x73, 0x65, 0x5f, 0x31, 0x31, 0x5f,
  0x31, 0x2f, 0x4d, 0x61, 0x74, 0x4d, 0x75, 0x6c, 0x00, 0x00, 0x00, 0x00,
  0x02, 0x00, 0x00, 0x00, 0x20, 0x00, 0x00, 0x00, 0x04, 0x00, 0x00, 0x00,
  0xa6, 0xfe, 0xff, 0xff, 0x00, 0x00, 0x00, 0x01, 0x10, 0x00, 0x00, 0x00,
  0x10, 0x00, 0x00, 0x00, 0x08, 0x00, 0x00, 0x00, 0x1c, 0x00, 0x00, 0x00,
  0x2c, 0xfe, 0xff, 0xff, 0x0f, 0x00, 0x00, 0x00, 0x61, 0x72, 0x69, 0x74,
  0x68, 0x2e, 0x63, 0x6f, 0x6e, 0x73, 0x74, 0x61, 0x6e, 0x74, 0x36, 0x00,
  0x01, 0x00, 0x00, 0x00, 0x20, 0x00, 0x00, 0x00, 0xde, 0xfe, 0xff, 0xff,
  0x00, 0x00, 0x00, 0x01, 0x10, 0x00, 0x00, 0x00, 0x10, 0x00, 0x00, 0x00,
  0x07, 0x00, 0x00, 0x00, 0x1c, 0x00, 0x00, 0x00, 0x64, 0xfe, 0xff, 0xff,
  0x0f, 0x00, 0x00, 0x00, 0x61, 0x72, 0x69, 0x74, 0x68, 0x2e, 0x63, 0x6f,
  0x6e, 0x73, 0x74, 0x61, 0x6e, 0x74, 0x35, 0x00, 0x01, 0x00, 0x00, 0x00,
  0x01, 0x00, 0x00, 0x00, 0x16, 0xff, 0xff, 0xff, 0x00, 0x00, 0x00, 0x01,
  0x10, 0x00, 0x00, 0x00, 0x10, 0x00, 0x00, 0x00, 0x06, 0x00, 0x00, 0x00,
  0x1c, 0x00, 0x00, 0x00, 0x9c, 0xfe, 0xff, 0xff, 0x0f, 0x00, 0x00, 0x00,
  0x61, 0x72, 0x69, 0x74, 0x68, 0x2e, 0x63, 0x6f, 0x6e, 0x73, 0x74, 0x61,
  0x6e, 0x74, 0x34, 0x00, 0x02, 0x00, 0x00, 0x00, 0x01, 0x00, 0x00, 0x00,
  0x08, 0x00, 0x00, 0x00, 0x52, 0xff, 0xff, 0xff, 0x00, 0x00, 0x00, 0x01,
  0x10, 0x00, 0x00, 0x00, 0x10, 0x00, 0x00, 0x00, 0x05, 0x00, 0x00, 0x00,
  0x1c, 0x00, 0x00, 0x00, 0xd8, 0xfe, 0xff, 0xff, 0x0f, 0x00, 0x00, 0x00,
  0x61, 0x72, 0x69, 0x74, 0x68, 0x2e, 0x63, 0x6f, 0x6e, 0x73, 0x74, 0x61,
  0x6e, 0x74, 0x33, 0x00, 0x01, 0x00, 0x00, 0x00, 0x10, 0x00, 0x00, 0x00,
  0x8a, 0xff, 0xff, 0xff, 0x00, 0x00, 0x00, 0x01, 0x10, 0x00, 0x00, 0x00,
  0x10, 0x00, 0x00, 0x00, 0x04, 0x00, 0x00, 0x00, 0x1c, 0x00, 0x00, 0x00,
  0x10, 0xff, 0xff, 0xff, 0x0f, 0x00, 0x00, 0x00, 0x61, 0x72, 0x69, 0x74,
  0x68, 0x2e, 0x63, 0x6f, 0x6e, 0x73, 0x74, 0x61, 0x6e, 0x74, 0x32, 0x00,
  0x02, 0x00, 0x00, 0x00, 0x10, 0x00, 0x00, 0x00, 0x20, 0x00, 0x00, 0x00,
  0xc6, 0xff, 0xff, 0xff, 0x00, 0x00, 0x00, 0x01, 0x10, 0x00, 0x00, 0x00,
  0x10, 0x00, 0x00, 0x00, 0x03, 0x00, 0x00, 0x00, 0x1c, 0x00, 0x00, 0x00,
  0x4c, 0xff, 0xff, 0xff, 0x0f, 0x00, 0x00, 0x00, 0x61, 0x72, 0x69, 0x74,
  0x68, 0x2e, 0x63, 0x6f, 0x6e, 0x73, 0x74, 0x61, 0x6e, 0x74, 0x31, 0x00,
  0x01, 0x00, 0x00, 0x00, 0x08, 0x00, 0x00, 0x00, 0x00, 0x00, 0x16, 0x00,
  0x18, 0x00, 0x14, 0x00, 0x00, 0x00, 0x10, 0x00, 0x0c, 0x00, 0x08, 0x00,
  0x00, 0x00, 0x00, 0x00, 0x00, 0x00, 0x07, 0x00, 0x16, 0x00, 0x00, 0x00,
  0x00, 0x00, 0x00, 0x01, 0x10, 0x00, 0x00, 0x00, 0x10, 0x00, 0x00, 0x00,
  0x02, 0x00, 0x00, 0x00, 0x1c, 0x00, 0x00, 0x00, 0x9c, 0xff, 0xff, 0xff,
  0x0e, 0x00, 0x00, 0x00, 0x61, 0x72, 0x69, 0x74, 0x68, 0x2e, 0x63, 0x6f,
  0x6e, 0x73, 0x74, 0x61, 0x6e, 0x74, 0x00, 0x00, 0x02, 0x00, 0x00, 0x00,
  0x08, 0x00, 0x00, 0x00, 0x10, 0x00, 0x00, 0x00, 0x00, 0x00, 0x16, 0x00,
  0x1c, 0x00, 0x18, 0x00, 0x00, 0x00, 0x14, 0x00, 0x10, 0x00, 0x0c, 0x00,
  0x00, 0x00, 0x00, 0x00, 0x08, 0x00, 0x07, 0x00, 0x16, 0x00, 0x00, 0x00,
  0x00, 0x00, 0x00, 0x01, 0x14, 0x00, 0x00, 0x00, 0x20, 0x00, 0x00, 0x00,
  0x20, 0x00, 0x00, 0x00, 0x01, 0x00, 0x00, 0x00, 0x40, 0x00, 0x00, 0x00,
  0x02, 0x00, 0x00, 0x00, 0xff, 0xff, 0xff, 0xff, 0x04, 0x00, 0x00, 0x00,
  0x04, 0x00, 0x04, 0x00, 0x04, 0x00, 0x00, 0x00, 0x21, 0x00, 0x00, 0x00,
  0x73, 0x65, 0x72, 0x76, 0x69, 0x6e, 0x67, 0x5f, 0x64, 0x65, 0x66, 0x61,
  0x75, 0x6c, 0x74, 0x5f, 0x6b, 0x65, 0x72, 0x61, 0x73, 0x5f, 0x74, 0x65,
  0x6e, 0x73, 0x6f, 0x72, 0x5f, 0x32, 0x32, 0x3a, 0x30, 0x00, 0x00, 0x00,
  0x02, 0x00, 0x00, 0x00, 0x01, 0x00, 0x00, 0x00, 0x04, 0x00, 0x00, 0x00,
  0x01, 0x00, 0x00, 0x00, 0x10, 0x00, 0x00, 0x00, 0x0c, 0x00, 0x0c, 0x00,
  0x0b, 0x00, 0x00, 0x00, 0x00, 0x00, 0x04, 0x00, 0x0c, 0x00, 0x00, 0x00,
  0x09, 0x00, 0x00, 0x00, 0x00, 0x00, 0x00, 0x09
};

// Input Scaler parameters (MinMaxScaler)
// Formula: X_scaled = (X - data_min) * scale
const float input_data_min[] = {50.500000f, 18.180000f, 22.220000f, 0.100000f};
const float input_data_max[] = {92.920000f, 33.330000f, 123.450000f, 999.990000f};
const float input_scale[] = {0.023574f, 0.066007f, 0.009878f, 0.001000f};

// Output Scaler parameters (MinMaxScaler)
// Formula: AQI = (Y_scaled - min_) / scale + data_min
const float output_data_min = 40.000000f;
const float output_data_max = 200.000000f;
const float output_scale = 0.006250f;

#endif
